const unsigned char trained_tflite[] = {
  0x1c, 0x00, 0x00, 0x00, 0x54, 0x46, 0x4c, 0x33, 0x00, 0x00, 0x12, 0x00,
  0x1c, 0x00, 0x04, 0x00, 0x08, 0x00, 0x0c, 0x00, 0x10, 0x00, 0x14, 0x00,
  0x00, 0x00, 0x18, 0x00, 0x12, 0x00, 0x00, 0x00, 0x03, 0x00, 0x00, 0x00,
  0x40, 0x10, 0x00, 0x00, 0x1c, 0x08, 0x00, 0x00, 0x04, 0x08, 0x00, 0x00,
  0x3c, 0x00, 0x00, 0x00, 0x04, 0x00, 0x00, 0x00, 0x01, 0x00, 0x00, 0x00,
  0x0c, 0x00, 0x00, 0x00, 0x08, 0x00, 0x0c, 0x00, 0x04, 0x00, 0x08, 0x00,
  0x08, 0x00, 0x00, 0x00, 0x08, 0x00, 0x00, 0x00, 0x0c, 0x00, 0x00, 0x00,
  0x13, 0x00, 0x00, 0x00, 0x6d, 0x69, 0x6e, 0x5f, 0x72, 0x75, 0x6e, 0x74,
  0x69, 0x6d, 0x65, 0x5f, 0x76, 0x65, 0x72, 0x73, 0x69, 0x6f, 0x6e, 0x00,
  0x0d, 0x00, 0x00, 0x00, 0xbc, 0x07, 0x00, 0x00, 0xa8, 0x07, 0x00, 0x00,
  0x3c, 0x07, 0x00, 0x00, 0xf8, 0x06, 0x00, 0x00, 0xd4, 0x06, 0x00, 0x00,
  0x90, 0x01, 0x00, 0x00, 0xac, 0x00, 0x00, 0x00, 0x78, 0x00, 0x00, 0x00,
  0x6c, 0x00, 0x00, 0x00, 0x58, 0x00, 0x00, 0x00, 0x44, 0x00, 0x00, 0x00,
  0x30, 0x00, 0x00, 0x00, 0x04, 0x00, 0x00, 0x00, 0xe6, 0xf7, 0xff, 0xff,
  0x04, 0x00, 0x00, 0x00, 0x10, 0x00, 0x00, 0x00, 0x31, 0x2e, 0x35, 0x2e,
  0x30, 0x00, 0x00, 0x00, 0x00, 0x00, 0x00, 0x00, 0x00, 0x00, 0x00, 0x00,
  0x00, 0x00, 0x00, 0x00, 0x00, 0x00, 0x00, 0x00, 0x00, 0x00, 0x00, 0x00,
  0xdc, 0xf7, 0xff, 0xff, 0x00, 0x00, 0x00, 0x00, 0x00, 0x00, 0x00, 0x00,
  0x00, 0x00, 0x00, 0x00, 0xec, 0xf7, 0xff, 0xff, 0x00, 0x00, 0x00, 0x00,
  0x00, 0x00, 0x00, 0x00, 0x00, 0x00, 0x00, 0x00, 0xfc, 0xf7, 0xff, 0xff,
  0x00, 0x00, 0x00, 0x00, 0x00, 0x00, 0x00, 0x00, 0x00, 0x00, 0x00, 0x00,
  0x0c, 0xf8, 0xff, 0xff, 0x00, 0x00, 0x00, 0x00, 0x46, 0xf8, 0xff, 0xff,
  0x04, 0x00, 0x00, 0x00, 0x1e, 0x00, 0x00, 0x00, 0xe8, 0x81, 0xb5, 0x4f,
  0x30, 0xf6, 0x22, 0x1d, 0xb9, 0xfd, 0x2f, 0xe4, 0x46, 0xbc, 0x0a, 0x0b,
  0xf9, 0x27, 0x41, 0x09, 0xae, 0x28, 0x06, 0x31, 0x56, 0x0f, 0xe0, 0xe3,
  0x17, 0xc5, 0x00, 0x00, 0x00, 0x00, 0x00, 0x00, 0x76, 0xf8, 0xff, 0xff,
  0x04, 0x00, 0x00, 0x00, 0xc8, 0x00, 0x00, 0x00, 0xcd, 0xfd, 0x12, 0x08,
  0x3b, 0xcc, 0xe7, 0x05, 0xbc, 0xb5, 0xe1, 0xd2, 0x42, 0x3b, 0xe9, 0xfb,
  0xb9, 0x09, 0xe1, 0x05, 0x20, 0x31, 0xe8, 0x50, 0x4a, 0x2c, 0x57, 0x1a,
  0xe3, 0xcc, 0x23, 0xd6, 0x21, 0x16, 0xdf, 0xe5, 0xe9, 0x49, 0x5a, 0xd2,
  0xc9, 0x43, 0x12, 0xea, 0x2a, 0xf9, 0x1f, 0xde, 0x37, 0x37, 0xd1, 0xd6,
  0x16, 0xb3, 0x10, 0xe5, 0xe5, 0x4a, 0xc1, 0xe3, 0xbe, 0xdb, 0xd9, 0xa1,
  0xe7, 0x2c, 0x49, 0x76, 0x40, 0xce, 0x42, 0x14, 0xf9, 0xcb, 0xff, 0x4d,
  0x33, 0x16, 0x35, 0xcc, 0x3d, 0xe7, 0xe2, 0xb0, 0xda, 0x53, 0x05, 0x3c,
  0xc2, 0x52, 0x16, 0xa0, 0xe9, 0x33, 0x0c, 0x2b, 0x30, 0xa9, 0x7f, 0x1a,
  0x5a, 0x30, 0xc7, 0x12, 0xf3, 0xe7, 0xe9, 0xf6, 0x42, 0xa6, 0xa6, 0x49,
  0xe4, 0x2d, 0xdd, 0x3d, 0x9c, 0xef, 0xc5, 0x38, 0x19, 0xd2, 0x04, 0x20,
  0x09, 0xf3, 0x2b, 0x0b, 0x26, 0x53, 0xec, 0x2d, 0x9c, 0xed, 0xf1, 0xf8,
  0x36, 0xee, 0x0d, 0xe0, 0xb0, 0x62, 0xd0, 0xd6, 0x00, 0x0c, 0x02, 0xaf,
  0x5d, 0x5d, 0x44, 0x66, 0xf6, 0x05, 0xdd, 0xe7, 0xe8, 0x1f, 0xd6, 0x34,
  0xe5, 0x48, 0x04, 0x42, 0x65, 0xf7, 0x16, 0xd2, 0xf0, 0xc1, 0x18, 0x3f,
  0x53, 0x51, 0x04, 0x25, 0xa3, 0x44, 0xff, 0x02, 0xcb, 0x37, 0x07, 0x4f,
  0xc7, 0x37, 0x34, 0xc5, 0x50, 0x01, 0xfc, 0x33, 0xba, 0xe7, 0xaf, 0x0b,
  0x45, 0x52, 0xd1, 0x51, 0x00, 0x00, 0x00, 0x00, 0x00, 0x00, 0x00, 0x00,
  0x00, 0x00, 0x00, 0x00, 0x56, 0xf9, 0xff, 0xff, 0x04, 0x00, 0x00, 0x00,
  0x28, 0x05, 0x00, 0x00, 0xc8, 0xf1, 0xd6, 0x04, 0xee, 0xf5, 0xb7, 0xc7,
  0xbc, 0xf7, 0x29, 0xfd, 0xfb, 0x57, 0x3e, 0x5d, 0x55, 0xfd, 0x39, 0xe5,
  0x41, 0xda, 0x43, 0xef, 0xe5, 0xfa, 0xcf, 0x1e, 0xea, 0xe1, 0xcb, 0xb6,
  0x03, 0x2c, 0x18, 0xd3, 0xd9, 0x23, 0x0f, 0xf7, 0x1c, 0x2c, 0x0e, 0x12,
  0xb9, 0x0e, 0xd9, 0x13, 0xdb, 0x08, 0x1c, 0x1f, 0xb4, 0x11, 0xf9, 0xf8,
  0x11, 0xda, 0xec, 0xfa, 0x0a, 0xf2, 0xc9, 0xd6, 0xbf, 0xd7, 0xff, 0x25,
  0xf3, 0xee, 0x0b, 0x32, 0x22, 0x10, 0xa7, 0x13, 0x1f, 0xef, 0x05, 0xd3,
  0xe9, 0xef, 0xf8, 0xde, 0x19, 0x1f, 0x11, 0xf2, 0xe4, 0xec, 0x2a, 0xe0,
  0x28, 0x1e, 0xe3, 0x1d, 0x4d, 0x5c, 0xe7, 0x08, 0xd5, 0x4a, 0xf9, 0x42,
  0x37, 0xef, 0xf3, 0x21, 0x20, 0x2a, 0xb2, 0xe8, 0xf3, 0xfa, 0xe7, 0xcf,
  0x1b, 0x0d, 0x8f, 0xbb, 0x3e, 0xf1, 0xd5, 0x39, 0xfa, 0xd0, 0x26, 0xef,
  0xc7, 0x10, 0xd8, 0xdc, 0xf7, 0xb1, 0xc4, 0x0d, 0xf7, 0x0e, 0xc1, 0xed,
  0xd5, 0x04, 0xe7, 0xe9, 0xc3, 0xeb, 0x15, 0xbd, 0xd4, 0xf1, 0x34, 0xc0,
  0x29, 0xf4, 0xd9, 0xfe, 0xdd, 0x27, 0xfa, 0xdf, 0xf6, 0xd7, 0xd4, 0x2f,
  0xc4, 0x14, 0xd2, 0x13, 0x0d, 0xf5, 0xe0, 0xd7, 0x33, 0xf2, 0xfc, 0xf8,
  0xe8, 0xf9, 0x26, 0xea, 0x3d, 0xcd, 0x3c, 0xfc, 0x09, 0xd0, 0x24, 0x17,
  0x17, 0x08, 0x08, 0x25, 0x15, 0xc0, 0xc4, 0x13, 0x1a, 0xca, 0xb7, 0xeb,
  0xbf, 0x18, 0x0d, 0x07, 0xc4, 0xec, 0xeb, 0x26, 0x05, 0xcf, 0x00, 0x22,
  0x02, 0xea, 0xfd, 0x0b, 0x36, 0x2c, 0xd5, 0xe7, 0x56, 0xf1, 0x0a, 0x29,
  0x25, 0xee, 0x3a, 0x2a, 0x1b, 0x4a, 0x35, 0xdc, 0xfc, 0x42, 0x14, 0x18,
  0xf0, 0x20, 0x16, 0x09, 0x05, 0x55, 0xb5, 0xf6, 0x14, 0xb9, 0x0e, 0x1c,
  0x28, 0xaf, 0xb8, 0x17, 0xcd, 0xd1, 0x1e, 0xf7, 0x28, 0xd0, 0xd6, 0xef,
  0xdd, 0x13, 0xcc, 0x10, 0x08, 0x3d, 0xdf, 0x27, 0x28, 0x3a, 0xd4, 0xef,
  0x0b, 0x09, 0x26, 0x11, 0x20, 0xff, 0xdc, 0x0f, 0xf4, 0xf9, 0x09, 0x13,
  0x1a, 0xef, 0xe1, 0x2c, 0xf1, 0xef, 0x48, 0x15, 0x29, 0x02, 0xf6, 0xb8,
  0xf3, 0x0d, 0xf8, 0xd1, 0x15, 0x29, 0xdc, 0xea, 0x04, 0xab, 0xa4, 0xea,
  0xad, 0x22, 0x1f, 0x46, 0x15, 0x23, 0x21, 0x98, 0xdc, 0xae, 0x00, 0x00,
  0x37, 0xdb, 0x28, 0x24, 0xec, 0x21, 0xf6, 0xe9, 0x4d, 0x06, 0x20, 0x03,
  0xf6, 0x05, 0xf3, 0x1d, 0x11, 0x12, 0x00, 0xca, 0xd0, 0xd8, 0x66, 0xe1,
  0x3c, 0x0c, 0xdb, 0x09, 0x2b, 0x30, 0xd6, 0xc0, 0xff, 0x18, 0xe0, 0x2a,
  0x0f, 0xf9, 0x3f, 0x1b, 0x2b, 0x4b, 0xf2, 0x53, 0xed, 0x3f, 0x0d, 0x19,
  0x51, 0xec, 0x19, 0x2e, 0x57, 0x2f, 0x05, 0x28, 0xd8, 0x1f, 0x0a, 0xfc,
  0xfb, 0x23, 0x0a, 0x00, 0x19, 0x24, 0x31, 0xe2, 0x26, 0xfb, 0xf9, 0x0a,
  0x2b, 0xf7, 0x02, 0xed, 0xc8, 0x77, 0xf4, 0xfc, 0xcb, 0x17, 0x0c, 0xdd,
  0xd5, 0x1b, 0xad, 0xd8, 0x04, 0xd9, 0x50, 0x14, 0x02, 0x1d, 0x17, 0xe8,
  0x08, 0xef, 0x52, 0x11, 0x27, 0x10, 0xf1, 0x1d, 0x2f, 0x06, 0x3c, 0x09,
  0xdd, 0x1b, 0xee, 0x00, 0x1d, 0x3a, 0x25, 0xfe, 0x5b, 0x2b, 0xec, 0xf1,
  0x09, 0x18, 0x38, 0x15, 0x2a, 0x1a, 0x17, 0x23, 0x41, 0xf9, 0xe9, 0x0d,
  0x13, 0x06, 0x02, 0xf6, 0x10, 0xe9, 0xe6, 0xc4, 0xc0, 0xa0, 0xf9, 0x68,
  0xe8, 0xee, 0xc3, 0x34, 0x00, 0xc6, 0x35, 0xcf, 0x21, 0xea, 0x00, 0xee,
  0xdb, 0xf1, 0xf6, 0xc4, 0x03, 0xed, 0xea, 0xca, 0xcc, 0x1e, 0xf2, 0xd4,
  0x30, 0x0b, 0x0e, 0x2a, 0xc2, 0x31, 0xba, 0xea, 0x11, 0x0f, 0xcb, 0x19,
  0x1c, 0x16, 0x02, 0xc4, 0x2c, 0xd4, 0xdc, 0x49, 0x18, 0x25, 0x01, 0x02,
  0x3b, 0x06, 0xd4, 0x2f, 0x10, 0x0f, 0x29, 0x3c, 0xf8, 0xe4, 0xf6, 0x21,
  0x0d, 0x26, 0xb8, 0x0d, 0x1d, 0x0f, 0x21, 0xd4, 0x2b, 0x2a, 0xf6, 0xfa,
  0x28, 0xdb, 0xc1, 0x3c, 0xf4, 0xe6, 0xc2, 0xce, 0xf9, 0xdf, 0x36, 0x01,
  0xfa, 0xf0, 0x04, 0xd1, 0xf5, 0x37, 0xcb, 0x21, 0x4c, 0x0d, 0xff, 0x31,
  0xe0, 0x36, 0x2a, 0x30, 0x0d, 0x17, 0xd9, 0x1f, 0x3e, 0xeb, 0xf5, 0x43,
  0x08, 0xf7, 0x4c, 0x25, 0xe9, 0x3b, 0xc7, 0xf1, 0x2f, 0xf3, 0x10, 0x0a,
  0xca, 0x21, 0x29, 0x12, 0x00, 0x3d, 0xe8, 0x4a, 0x43, 0x41, 0x12, 0x04,
  0x19, 0x29, 0xd1, 0x15, 0x0c, 0xf7, 0x38, 0x0f, 0x15, 0xf6, 0xce, 0x09,
  0x0e, 0xe2, 0x07, 0x2a, 0x4d, 0xdc, 0x38, 0xeb, 0x17, 0x1c, 0x4d, 0xe4,
  0xef, 0xeb, 0x4b, 0x35, 0xed, 0x39, 0xfd, 0xfb, 0x01, 0x61, 0x14, 0x41,
  0x08, 0x38, 0xf7, 0x10, 0x58, 0x49, 0x3e, 0xca, 0x56, 0x0c, 0x18, 0x3e,
  0x06, 0x73, 0x0f, 0x75, 0x6b, 0xd7, 0xd3, 0xfb, 0x24, 0x1f, 0xee, 0xff,
  0x4a, 0xe7, 0x50, 0x56, 0xcf, 0xe4, 0xc8, 0xdf, 0x39, 0xf3, 0x1e, 0x02,
  0x10, 0x30, 0xfc, 0x36, 0x2d, 0x35, 0x00, 0xcd, 0xcf, 0x1b, 0xed, 0xf5,
  0xd6, 0xfe, 0x34, 0xe5, 0xf0, 0x20, 0xd4, 0x35, 0x2f, 0xd1, 0x4b, 0x03,
  0xb6, 0x17, 0x3b, 0x2f, 0xfd, 0x11, 0xe9, 0x09, 0x03, 0x21, 0x52, 0x45,
  0x2d, 0x2c, 0x22, 0x23, 0xfa, 0xc0, 0x3c, 0x01, 0xeb, 0x1d, 0x48, 0xd7,
  0x21, 0x35, 0xc4, 0x34, 0xe2, 0x16, 0x22, 0xc2, 0xcb, 0xd4, 0x4f, 0x0a,
  0x13, 0x00, 0x27, 0x4a, 0x20, 0x46, 0x48, 0x51, 0x14, 0x42, 0xea, 0xe0,
  0xdd, 0x20, 0x0b, 0x36, 0x40, 0x44, 0x39, 0xf4, 0x07, 0xef, 0x34, 0xd5,
  0xfb, 0x2b, 0xc3, 0x34, 0xcd, 0x22, 0xf4, 0xe7, 0x42, 0xcf, 0x33, 0x2b,
  0x2c, 0xe1, 0xdd, 0xe2, 0xb3, 0xd1, 0xcc, 0x15, 0xc7, 0x1c, 0xf8, 0x0f,
  0xf2, 0xe9, 0x27, 0x39, 0x2b, 0x01, 0x26, 0x3c, 0xde, 0x38, 0xf8, 0xfc,
  0x4b, 0x2d, 0x2d, 0x51, 0x1d, 0x3a, 0x0e, 0xd8, 0x31, 0xdc, 0xfd, 0xe5,
  0xf7, 0x40, 0x06, 0xeb, 0xe1, 0x40, 0x3e, 0xd7, 0x2e, 0x0e, 0xd0, 0x00,
  0xcc, 0xf9, 0x31, 0x06, 0xc1, 0xfc, 0xc4, 0x03, 0x18, 0xdd, 0x1c, 0xdb,
  0xf0, 0x1d, 0xd4, 0xc4, 0xcb, 0xeb, 0xc8, 0x34, 0xd5, 0xee, 0xe7, 0x14,
  0xe8, 0xfb, 0x16, 0xee, 0xed, 0x26, 0xf5, 0xcd, 0xcd, 0xad, 0x12, 0x32,
  0x33, 0x08, 0x2e, 0x27, 0xd0, 0xda, 0x24, 0x03, 0xf5, 0x2f, 0x08, 0x17,
  0xec, 0x21, 0x0e, 0xe5, 0x17, 0xf5, 0x10, 0x2d, 0x48, 0x3e, 0x2a, 0xea,
  0x05, 0x18, 0xeb, 0xf3, 0x11, 0x39, 0xc6, 0xeb, 0x10, 0xf1, 0xb4, 0x31,
  0x1e, 0xfa, 0x20, 0xd7, 0xad, 0x2e, 0x18, 0x08, 0x36, 0x09, 0x26, 0xce,
  0x15, 0xb7, 0xd2, 0xdf, 0x0b, 0xdb, 0xc8, 0x15, 0xca, 0xff, 0xec, 0x3b,
  0xd1, 0xbb, 0xdc, 0xd6, 0x09, 0x28, 0x0e, 0x3e, 0xc9, 0xec, 0xf9, 0xfa,
  0x42, 0xfa, 0x02, 0x30, 0xdb, 0xc4, 0x41, 0xe3, 0x1d, 0xeb, 0x22, 0x27,
  0x06, 0xe7, 0xc9, 0xf9, 0xd0, 0xf2, 0x0c, 0xfb, 0xdb, 0xe0, 0xe5, 0xda,
  0x0d, 0x1c, 0xde, 0x15, 0x28, 0x13, 0xd6, 0xf4, 0xe2, 0x05, 0x0b, 0xff,
  0x2e, 0x30, 0x3c, 0xc6, 0x13, 0x09, 0xd1, 0xea, 0x02, 0xce, 0x2d, 0xc8,
  0xee, 0x0d, 0x31, 0xc0, 0x2c, 0x06, 0xcf, 0x06, 0x26, 0x22, 0xfc, 0xdf,
  0xe7, 0x01, 0x2c, 0x31, 0xc1, 0x28, 0xed, 0xea, 0xbd, 0x00, 0xcf, 0x4e,
  0xe6, 0x19, 0xdf, 0x32, 0xd2, 0xd7, 0xf3, 0x31, 0xc7, 0x15, 0xf6, 0xe6,
  0x46, 0xc9, 0xf0, 0x1b, 0x20, 0x20, 0x01, 0xd9, 0x11, 0xd9, 0xe6, 0xf3,
  0x1a, 0x1b, 0x10, 0x03, 0xca, 0xd9, 0xac, 0x3a, 0x21, 0xfe, 0xfb, 0x25,
  0x05, 0x37, 0x4d, 0xf5, 0x53, 0xf9, 0xfa, 0x16, 0xd5, 0x34, 0xfa, 0x28,
  0xf8, 0x47, 0x34, 0x36, 0x2e, 0x19, 0x04, 0xda, 0xe9, 0xba, 0x22, 0xdc,
  0xc3, 0xdb, 0xf0, 0x0f, 0xda, 0x31, 0x33, 0x1b, 0xfb, 0x0b, 0x01, 0xec,
  0x0a, 0x25, 0x02, 0xcf, 0xca, 0xcc, 0xe0, 0x16, 0x1f, 0x0a, 0xdf, 0x01,
  0xe3, 0xc8, 0xf6, 0x25, 0x3d, 0x21, 0xf5, 0x21, 0x64, 0x44, 0x1a, 0x0f,
  0xed, 0x50, 0x08, 0x39, 0x1b, 0xfa, 0xe3, 0x2d, 0x3b, 0x6e, 0x0f, 0xe8,
  0x44, 0xfa, 0x47, 0x2a, 0x5e, 0x11, 0x40, 0x68, 0x2b, 0x46, 0x26, 0x0f,
  0xcd, 0xfd, 0x04, 0xdf, 0xf3, 0xfe, 0xf7, 0x41, 0xf6, 0xec, 0xd6, 0xff,
  0xb4, 0xc3, 0x28, 0xe3, 0x04, 0x17, 0xc6, 0xf7, 0xfa, 0x18, 0x0a, 0xe7,
  0xee, 0xe3, 0x01, 0xf8, 0xd5, 0x30, 0xc8, 0xec, 0x25, 0xc6, 0x38, 0xed,
  0xd5, 0x31, 0x15, 0x28, 0x2c, 0x17, 0x23, 0x09, 0xc0, 0xbf, 0x2f, 0x0f,
  0xd3, 0x14, 0xcc, 0x26, 0xc9, 0x39, 0x2a, 0x43, 0x14, 0x2c, 0xf4, 0xcf,
  0xe2, 0x12, 0xc8, 0x25, 0x2b, 0xc8, 0xf5, 0xe0, 0x0f, 0xc3, 0x23, 0xe1,
  0x1c, 0x21, 0x28, 0xdf, 0xd4, 0x30, 0x39, 0x4a, 0x09, 0x0d, 0xee, 0xc8,
  0xea, 0xf1, 0xa8, 0xdf, 0x6d, 0x05, 0x0a, 0x41, 0xf7, 0xf2, 0xcb, 0xe9,
  0x17, 0xc0, 0xf3, 0x7f, 0xde, 0xf2, 0x2f, 0xfd, 0x28, 0xef, 0x1e, 0x14,
  0x16, 0x1f, 0x2d, 0x39, 0x29, 0xec, 0x1c, 0x31, 0xff, 0xd8, 0x2c, 0xdd,
  0x61, 0x4a, 0xeb, 0x0f, 0x39, 0x07, 0x0d, 0xfa, 0x00, 0x09, 0x42, 0xcb,
  0x3f, 0x10, 0xc1, 0x00, 0x02, 0xf1, 0x2d, 0xb4, 0x14, 0xf0, 0xfd, 0x08,
  0x39, 0x1b, 0x23, 0x01, 0x07, 0xd7, 0x45, 0x47, 0x09, 0x3c, 0xe3, 0xf7,
  0x30, 0x1c, 0x18, 0xd5, 0x1d, 0x06, 0xfe, 0x32, 0x3a, 0xb2, 0x2c, 0x32,
  0x02, 0x31, 0xb0, 0xc4, 0xc0, 0xd1, 0x59, 0x15, 0x23, 0xfd, 0x29, 0xe3,
  0x14, 0xe6, 0xba, 0xd0, 0x26, 0x1a, 0xd2, 0x15, 0xf1, 0x40, 0xda, 0xc4,
  0x39, 0x16, 0xd6, 0xdb, 0xd1, 0x16, 0x29, 0xdb, 0x18, 0xff, 0x16, 0xd3,
  0x2a, 0xe8, 0xf4, 0x52, 0x00, 0x00, 0x00, 0x00, 0x00, 0x00, 0x00, 0x00,
  0x00, 0x00, 0x00, 0x00, 0x96, 0xfe, 0xff, 0xff, 0x04, 0x00, 0x00, 0x00,
  0x0c, 0x00, 0x00, 0x00, 0x28, 0xff, 0xff, 0xff, 0x25, 0xff, 0xff, 0xff,
  0x8d, 0x01, 0x00, 0x00, 0x00, 0x00, 0x00, 0x00, 0x00, 0x00, 0x00, 0x00,
  0xb6, 0xfe, 0xff, 0xff, 0x04, 0x00, 0x00, 0x00, 0x28, 0x00, 0x00, 0x00,
  0x7b, 0xff, 0xff, 0xff, 0xf0, 0x04, 0x00, 0x00, 0xa5, 0xff, 0xff, 0xff,
  0x17, 0x01, 0x00, 0x00, 0x51, 0x04, 0x00, 0x00, 0xe9, 0x01, 0x00, 0x00,
  0x63, 0xfe, 0xff, 0xff, 0xe4, 0xfd, 0xff, 0xff, 0xa2, 0x00, 0x00, 0x00,
  0x1c, 0xfe, 0xff, 0xff, 0x00, 0x00, 0x00, 0x00, 0x00, 0x00, 0x00, 0x00,
  0x00, 0x00, 0x00, 0x00, 0xf6, 0xfe, 0xff, 0xff, 0x04, 0x00, 0x00, 0x00,
  0x50, 0x00, 0x00, 0x00, 0x21, 0x03, 0x00, 0x00, 0x19, 0x02, 0x00, 0x00,
  0x90, 0xfe, 0xff, 0xff, 0xe2, 0xfe, 0xff, 0xff, 0x92, 0x03, 0x00, 0x00,
  0xf3, 0x04, 0x00, 0x00, 0xe1, 0x07, 0x00, 0x00, 0xd1, 0x06, 0x00, 0x00,
  0x5b, 0xfe, 0xff, 0xff, 0xee, 0xfd, 0xff, 0xff, 0xeb, 0x03, 0x00, 0x00,
  0x57, 0xfc, 0xff, 0xff, 0xa8, 0x01, 0x00, 0x00, 0x0d, 0x01, 0x00, 0x00,
  0x49, 0x00, 0x00, 0x00, 0x46, 0x02, 0x00, 0x00, 0x4f, 0xff, 0xff, 0xff,
  0x77, 0xff, 0xff, 0xff, 0x1c, 0x07, 0x00, 0x00, 0x42, 0xfd, 0xff, 0xff,
  0x00, 0x00, 0x00, 0x00, 0x00, 0x00, 0x00, 0x00, 0x00, 0x00, 0x00, 0x00,
  0x2c, 0xff, 0xff, 0xff, 0x00, 0x00, 0x00, 0x00, 0x00, 0x00, 0x00, 0x00,
  0x00, 0x00, 0x00, 0x00, 0x3c, 0xff, 0xff, 0xff, 0x0f, 0x00, 0x00, 0x00,
  0x4d, 0x4c, 0x49, 0x52, 0x20, 0x43, 0x6f, 0x6e, 0x76, 0x65, 0x72, 0x74,
  0x65, 0x64, 0x2e, 0x00, 0x01, 0x00, 0x00, 0x00, 0x14, 0x00, 0x00, 0x00,
  0x00, 0x00, 0x0e, 0x00, 0x18, 0x00, 0x04, 0x00, 0x08, 0x00, 0x0c, 0x00,
  0x10, 0x00, 0x14, 0x00, 0x0e, 0x00, 0x00, 0x00, 0x50, 0x01, 0x00, 0x00,
  0x44, 0x01, 0x00, 0x00, 0x38, 0x01, 0x00, 0x00, 0x14, 0x00, 0x00, 0x00,
  0x04, 0x00, 0x00, 0x00, 0x04, 0x00, 0x00, 0x00, 0x6d, 0x61, 0x69, 0x6e,
  0x00, 0x00, 0x00, 0x00, 0x04, 0x00, 0x00, 0x00, 0xe0, 0x00, 0x00, 0x00,
  0x98, 0x00, 0x00, 0x00, 0x50, 0x00, 0x00, 0x00, 0x14, 0x00, 0x00, 0x00,
  0x00, 0x00, 0x0e, 0x00, 0x1a, 0x00, 0x08, 0x00, 0x0c, 0x00, 0x10, 0x00,
  0x07, 0x00, 0x14, 0x00, 0x0e, 0x00, 0x00, 0x00, 0x00, 0x00, 0x00, 0x09,
  0x01, 0x00, 0x00, 0x00, 0x24, 0x00, 0x00, 0x00, 0x18, 0x00, 0x00, 0x00,
  0x0c, 0x00, 0x00, 0x00, 0x00, 0x00, 0x06, 0x00, 0x08, 0x00, 0x04, 0x00,
  0x06, 0x00, 0x00, 0x00, 0x00, 0x00, 0x80, 0x3f, 0x01, 0x00, 0x00, 0x00,
  0x0a, 0x00, 0x00, 0x00, 0x01, 0x00, 0x00, 0x00, 0x09, 0x00, 0x00, 0x00,
  0xca, 0xff, 0xff, 0xff, 0x00, 0x00, 0x00, 0x08, 0x1c, 0x00, 0x00, 0x00,
  0x10, 0x00, 0x00, 0x00, 0x08, 0x00, 0x00, 0x00, 0x04, 0x00, 0x04, 0x00,
  0x04, 0x00, 0x00, 0x00, 0x01, 0x00, 0x00, 0x00, 0x09, 0x00, 0x00, 0x00,
  0x03, 0x00, 0x00, 0x00, 0x08, 0x00, 0x00, 0x00, 0x06, 0x00, 0x00, 0x00,
  0x03, 0x00, 0x00, 0x00, 0x00, 0x00, 0x0e, 0x00, 0x14, 0x00, 0x00, 0x00,
  0x08, 0x00, 0x0c, 0x00, 0x07, 0x00, 0x10, 0x00, 0x0e, 0x00, 0x00, 0x00,
  0x00, 0x00, 0x00, 0x08, 0x1c, 0x00, 0x00, 0x00, 0x10, 0x00, 0x00, 0x00,
  0x04, 0x00, 0x00, 0x00, 0xba, 0xff, 0xff, 0xff, 0x00, 0x00, 0x00, 0x01,
  0x01, 0x00, 0x00, 0x00, 0x08, 0x00, 0x00, 0x00, 0x03, 0x00, 0x00, 0x00,
  0x07, 0x00, 0x00, 0x00, 0x05, 0x00, 0x00, 0x00, 0x02, 0x00, 0x00, 0x00,
  0x00, 0x00, 0x0e, 0x00, 0x16, 0x00, 0x00, 0x00, 0x08, 0x00, 0x0c, 0x00,
  0x07, 0x00, 0x10, 0x00, 0x0e, 0x00, 0x00, 0x00, 0x00, 0x00, 0x00, 0x08,
  0x24, 0x00, 0x00, 0x00, 0x18, 0x00, 0x00, 0x00, 0x0c, 0x00, 0x00, 0x00,
  0x00, 0x00, 0x06, 0x00, 0x08, 0x00, 0x07, 0x00, 0x06, 0x00, 0x00, 0x00,
  0x00, 0x00, 0x00, 0x01, 0x01, 0x00, 0x00, 0x00, 0x07, 0x00, 0x00, 0x00,
  0x03, 0x00, 0x00, 0x00, 0x00, 0x00, 0x00, 0x00, 0x04, 0x00, 0x00, 0x00,
  0x01, 0x00, 0x00, 0x00, 0x01, 0x00, 0x00, 0x00, 0x0a, 0x00, 0x00, 0x00,
  0x01, 0x00, 0x00, 0x00, 0x00, 0x00, 0x00, 0x00, 0x0b, 0x00, 0x00, 0x00,
  0x38, 0x06, 0x00, 0x00, 0xc4, 0x05, 0x00, 0x00, 0x6c, 0x05, 0x00, 0x00,
  0x18, 0x05, 0x00, 0x00, 0x6c, 0x04, 0x00, 0x00, 0xb8, 0x03, 0x00, 0x00,
  0x04, 0x03, 0x00, 0x00, 0x10, 0x02, 0x00, 0x00, 0x14, 0x01, 0x00, 0x00,
  0x60, 0x00, 0x00, 0x00, 0x04, 0x00, 0x00, 0x00, 0x02, 0xfa, 0xff, 0xff,
  0x00, 0x00, 0x00, 0x09, 0x44, 0x00, 0x00, 0x00, 0x0b, 0x00, 0x00, 0x00,
  0x2c, 0x00, 0x00, 0x00, 0x04, 0x00, 0x00, 0x00, 0x64, 0xfa, 0xff, 0xff,
  0x18, 0x00, 0x00, 0x00, 0x04, 0x00, 0x00, 0x00, 0x01, 0x00, 0x00, 0x00,
  0x80, 0xff, 0xff, 0xff, 0xff, 0xff, 0xff, 0xff, 0x00, 0x00, 0x00, 0x00,
  0x01, 0x00, 0x00, 0x00, 0x00, 0x00, 0x80, 0x3b, 0x08, 0x00, 0x00, 0x00,
  0x49, 0x64, 0x65, 0x6e, 0x74, 0x69, 0x74, 0x79, 0x00, 0x00, 0x00, 0x00,
  0x02, 0x00, 0x00, 0x00, 0x01, 0x00, 0x00, 0x00, 0x03, 0x00, 0x00, 0x00,
  0x5a, 0xfa, 0xff, 0xff, 0x00, 0x00, 0x00, 0x09, 0x9c, 0x00, 0x00, 0x00,
  0x0a, 0x00, 0x00, 0x00, 0x44, 0x00, 0x00, 0x00, 0x04, 0x00, 0x00, 0x00,
  0x4c, 0xfa, 0xff, 0xff, 0x30, 0x00, 0x00, 0x00, 0x24, 0x00, 0x00, 0x00,
  0x18, 0x00, 0x00, 0x00, 0x04, 0x00, 0x00, 0x00, 0x01, 0x00, 0x00, 0x00,
  0xed, 0xff, 0xff, 0xff, 0xff, 0xff, 0xff, 0xff, 0x00, 0x00, 0x00, 0x00,
  0x01, 0x00, 0x00, 0x00, 0x86, 0xd9, 0x94, 0x3d, 0x01, 0x00, 0x00, 0x00,
  0x2c, 0x35, 0x2a, 0x41, 0x01, 0x00, 0x00, 0x00, 0x58, 0xa8, 0xfc, 0xc0,
  0x4b, 0x00, 0x00, 0x00, 0x73, 0x65, 0x71, 0x75, 0x65, 0x6e, 0x74, 0x69,
  0x61, 0x6c, 0x2f, 0x79, 0x5f, 0x70, 0x72, 0x65, 0x64, 0x2f, 0x42, 0x69,
  0x61, 0x73, 0x41, 0x64, 0x64, 0x3b, 0x53, 0x74, 0x61, 0x74, 0x65, 0x66,
  0x75, 0x6c, 0x50, 0x61, 0x72, 0x74, 0x69, 0x74, 0x69, 0x6f, 0x6e, 0x65,
  0x64, 0x43, 0x61, 0x6c, 0x6c, 0x2f, 0x73, 0x65, 0x71, 0x75, 0x65, 0x6e,
  0x74, 0x69, 0x61, 0x6c, 0x2f, 0x79, 0x5f, 0x70, 0x72, 0x65, 0x64, 0x2f,
  0x42, 0x69, 0x61, 0x73, 0x41, 0x64, 0x64, 0x00, 0x02, 0x00, 0x00, 0x00,
  0x01, 0x00, 0x00, 0x00, 0x03, 0x00, 0x00, 0x00, 0x0a, 0xfb, 0xff, 0xff,
  0x00, 0x00, 0x00, 0x09, 0xe4, 0x00, 0x00, 0x00, 0x09, 0x00, 0x00, 0x00,
  0x40, 0x00, 0x00, 0x00, 0x04, 0x00, 0x00, 0x00, 0xfc, 0xfa, 0xff, 0xff,
  0x2c, 0x00, 0x00, 0x00, 0x20, 0x00, 0x00, 0x00, 0x14, 0x00, 0x00, 0x00,
  0x04, 0x00, 0x00, 0x00, 0x01, 0x00, 0x00, 0x00, 0x80, 0xff, 0xff, 0xff,
  0xff, 0xff, 0xff, 0xff, 0x01, 0x00, 0x00, 0x00, 0x7c, 0x75, 0x87, 0x3d,
  0x01, 0x00, 0x00, 0x00, 0x07, 0xee, 0x86, 0x41, 0x01, 0x00, 0x00, 0x00,
  0x00, 0x00, 0x00, 0x00, 0x95, 0x00, 0x00, 0x00, 0x73, 0x65, 0x71, 0x75,
  0x65, 0x6e, 0x74, 0x69, 0x61, 0x6c, 0x2f, 0x64, 0x65, 0x6e, 0x73, 0x65,
  0x5f, 0x31, 0x2f, 0x52, 0x65, 0x6c, 0x75, 0x3b, 0x53, 0x74, 0x61, 0x74,
  0x65, 0x66, 0x75, 0x6c, 0x50, 0x61, 0x72, 0x74, 0x69, 0x74, 0x69, 0x6f,
  0x6e, 0x65, 0x64, 0x43, 0x61, 0x6c, 0x6c, 0x2f, 0x73, 0x65, 0x71, 0x75,
  0x65, 0x6e, 0x74, 0x69, 0x61, 0x6c, 0x2f, 0x64, 0x65, 0x6e, 0x73, 0x65,
  0x5f, 0x31, 0x2f, 0x52, 0x65, 0x6c, 0x75, 0x3b, 0x73, 0x65, 0x71, 0x75,
  0x65, 0x6e, 0x74, 0x69, 0x61, 0x6c, 0x2f, 0x64, 0x65, 0x6e, 0x73, 0x65,
  0x5f, 0x31, 0x2f, 0x42, 0x69, 0x61, 0x73, 0x41, 0x64, 0x64, 0x3b, 0x53,
  0x74, 0x61, 0x74, 0x65, 0x66, 0x75, 0x6c, 0x50, 0x61, 0x72, 0x74, 0x69,
  0x74, 0x69, 0x6f, 0x6e, 0x65, 0x64, 0x43, 0x61, 0x6c, 0x6c, 0x2f, 0x73,
  0x65, 0x71, 0x75, 0x65, 0x6e, 0x74, 0x69, 0x61, 0x6c, 0x2f, 0x64, 0x65,
  0x6e, 0x73, 0x65, 0x5f, 0x31, 0x2f, 0x42, 0x69, 0x61, 0x73, 0x41, 0x64,
  0x64, 0x00, 0x00, 0x00, 0x02, 0x00, 0x00, 0x00, 0x01, 0x00, 0x00, 0x00,
  0x0a, 0x00, 0x00, 0x00, 0x02, 0xfc, 0xff, 0xff, 0x00, 0x00, 0x00, 0x09,
  0xdc, 0x00, 0x00, 0x00, 0x08, 0x00, 0x00, 0x00, 0x40, 0x00, 0x00, 0x00,
  0x04, 0x00, 0x00, 0x00, 0xf4, 0xfb, 0xff, 0xff, 0x2c, 0x00, 0x00, 0x00,
  0x20, 0x00, 0x00, 0x00, 0x14, 0x00, 0x00, 0x00, 0x04, 0x00, 0x00, 0x00,
  0x01, 0x00, 0x00, 0x00, 0x80, 0xff, 0xff, 0xff, 0xff, 0xff, 0xff, 0xff,
  0x01, 0x00, 0x00, 0x00, 0x0c, 0x80, 0x3e, 0x3d, 0x01, 0x00, 0x00, 0x00,
  0x8c, 0xc1, 0x3d, 0x41, 0x01, 0x00, 0x00, 0x00, 0x00, 0x00, 0x00, 0x00,
  0x8d, 0x00, 0x00, 0x00, 0x73, 0x65, 0x71, 0x75, 0x65, 0x6e, 0x74, 0x69,
  0x61, 0x6c, 0x2f, 0x64, 0x65, 0x6e, 0x73, 0x65, 0x2f, 0x52, 0x65, 0x6c,
  0x75, 0x3b, 0x53, 0x74, 0x61, 0x74, 0x65, 0x66, 0x75, 0x6c, 0x50, 0x61,
  0x72, 0x74, 0x69, 0x74, 0x69, 0x6f, 0x6e, 0x65, 0x64, 0x43, 0x61, 0x6c,
  0x6c, 0x2f, 0x73, 0x65, 0x71, 0x75, 0x65, 0x6e, 0x74, 0x69, 0x61, 0x6c,
  0x2f, 0x64, 0x65, 0x6e, 0x73, 0x65, 0x2f, 0x52, 0x65, 0x6c, 0x75, 0x3b,
  0x73, 0x65, 0x71, 0x75, 0x65, 0x6e, 0x74, 0x69, 0x61, 0x6c, 0x2f, 0x64,
  0x65, 0x6e, 0x73, 0x65, 0x2f, 0x42, 0x69, 0x61, 0x73, 0x41, 0x64, 0x64,
  0x3b, 0x53, 0x74, 0x61, 0x74, 0x65, 0x66, 0x75, 0x6c, 0x50, 0x61, 0x72,
  0x74, 0x69, 0x74, 0x69, 0x6f, 0x6e, 0x65, 0x64, 0x43, 0x61, 0x6c, 0x6c,
  0x2f, 0x73, 0x65, 0x71, 0x75, 0x65, 0x6e, 0x74, 0x69, 0x61, 0x6c, 0x2f,
  0x64, 0x65, 0x6e, 0x73, 0x65, 0x2f, 0x42, 0x69, 0x61, 0x73, 0x41, 0x64,
  0x64, 0x00, 0x00, 0x00, 0x02, 0x00, 0x00, 0x00, 0x01, 0x00, 0x00, 0x00,
  0x14, 0x00, 0x00, 0x00, 0xf2, 0xfc, 0xff, 0xff, 0x00, 0x00, 0x00, 0x09,
  0x9c, 0x00, 0x00, 0x00, 0x07, 0x00, 0x00, 0x00, 0x44, 0x00, 0x00, 0x00,
  0x04, 0x00, 0x00, 0x00, 0xe4, 0xfc, 0xff, 0xff, 0x30, 0x00, 0x00, 0x00,
  0x24, 0x00, 0x00, 0x00, 0x18, 0x00, 0x00, 0x00, 0x04, 0x00, 0x00, 0x00,
  0x01, 0x00, 0x00, 0x00, 0x00, 0x00, 0x00, 0x00, 0x00, 0x00, 0x00, 0x00,
  0x00, 0x00, 0x00, 0x00, 0x01, 0x00, 0x00, 0x00, 0x83, 0xd2, 0x01, 0x3c,
  0x01, 0x00, 0x00, 0x00, 0x14, 0xb6, 0x2e, 0x3f, 0x01, 0x00, 0x00, 0x00,
  0xde, 0xce, 0x80, 0xbf, 0x49, 0x00, 0x00, 0x00, 0x73, 0x65, 0x71, 0x75,
  0x65, 0x6e, 0x74, 0x69, 0x61, 0x6c, 0x2f, 0x79, 0x5f, 0x70, 0x72, 0x65,
  0x64, 0x2f, 0x4d, 0x61, 0x74, 0x4d, 0x75, 0x6c, 0x3b, 0x53, 0x74, 0x61,
  0x74, 0x65, 0x66, 0x75, 0x6c, 0x50, 0x61, 0x72, 0x74, 0x69, 0x74, 0x69,
  0x6f, 0x6e, 0x65, 0x64, 0x43, 0x61, 0x6c, 0x6c, 0x2f, 0x73, 0x65, 0x71,
  0x75, 0x65, 0x6e, 0x74, 0x69, 0x61, 0x6c, 0x2f, 0x79, 0x5f, 0x70, 0x72,
  0x65, 0x64, 0x2f, 0x4d, 0x61, 0x74, 0x4d, 0x75, 0x6c, 0x00, 0x00, 0x00,
  0x02, 0x00, 0x00, 0x00, 0x03, 0x00, 0x00, 0x00, 0x0a, 0x00, 0x00, 0x00,
  0xa2, 0xfd, 0xff, 0xff, 0x00, 0x00, 0x00, 0x09, 0x9c, 0x00, 0x00, 0x00,
  0x06, 0x00, 0x00, 0x00, 0x44, 0x00, 0x00, 0x00, 0x04, 0x00, 0x00, 0x00,
  0x94, 0xfd, 0xff, 0xff, 0x30, 0x00, 0x00, 0x00, 0x24, 0x00, 0x00, 0x00,
  0x18, 0x00, 0x00, 0x00, 0x04, 0x00, 0x00, 0x00, 0x01, 0x00, 0x00, 0x00,
  0x00, 0x00, 0x00, 0x00, 0x00, 0x00, 0x00, 0x00, 0x00, 0x00, 0x00, 0x00,
  0x01, 0x00, 0x00, 0x00, 0xe2, 0x24, 0xb5, 0x3b, 0x01, 0x00, 0x00, 0x00,
  0x98, 0xba, 0x33, 0x3f, 0x01, 0x00, 0x00, 0x00, 0x9d, 0xe3, 0x0d, 0xbf,
  0x4b, 0x00, 0x00, 0x00, 0x73, 0x65, 0x71, 0x75, 0x65, 0x6e, 0x74, 0x69,
  0x61, 0x6c, 0x2f, 0x64, 0x65, 0x6e, 0x73, 0x65, 0x5f, 0x31, 0x2f, 0x4d,
  0x61, 0x74, 0x4d, 0x75, 0x6c, 0x3b, 0x53, 0x74, 0x61, 0x74, 0x65, 0x66,
  0x75, 0x6c, 0x50, 0x61, 0x72, 0x74, 0x69, 0x74, 0x69, 0x6f, 0x6e, 0x65,
  0x64, 0x43, 0x61, 0x6c, 0x6c, 0x2f, 0x73, 0x65, 0x71, 0x75, 0x65, 0x6e,
  0x74, 0x69, 0x61, 0x6c, 0x2f, 0x64, 0x65, 0x6e, 0x73, 0x65, 0x5f, 0x31,
  0x2f, 0x4d, 0x61, 0x74, 0x4d, 0x75, 0x6c, 0x00, 0x02, 0x00, 0x00, 0x00,
  0x0a, 0x00, 0x00, 0x00, 0x14, 0x00, 0x00, 0x00, 0x52, 0xfe, 0xff, 0xff,
  0x00, 0x00, 0x00, 0x09, 0x94, 0x00, 0x00, 0x00, 0x05, 0x00, 0x00, 0x00,
  0x40, 0x00, 0x00, 0x00, 0x04, 0x00, 0x00, 0x00, 0x44, 0xfe, 0xff, 0xff,
  0x2c, 0x00, 0x00, 0x00, 0x20, 0x00, 0x00, 0x00, 0x14, 0x00, 0x00, 0x00,
  0x04, 0x00, 0x00, 0x00, 0x01, 0x00, 0x00, 0x00, 0x00, 0x00, 0x00, 0x00,
  0x00, 0x00, 0x00, 0x00, 0x01, 0x00, 0x00, 0x00, 0x0c, 0x39, 0x84, 0x3b,
  0x01, 0x00, 0x00, 0x00, 0x9a, 0x30, 0x03, 0x3f, 0x01, 0x00, 0x00, 0x00,
  0xd1, 0xde, 0xe8, 0xbe, 0x47, 0x00, 0x00, 0x00, 0x73, 0x65, 0x71, 0x75,
  0x65, 0x6e, 0x74, 0x69, 0x61, 0x6c, 0x2f, 0x64, 0x65, 0x6e, 0x73, 0x65,
  0x2f, 0x4d, 0x61, 0x74, 0x4d, 0x75, 0x6c, 0x3b, 0x53, 0x74, 0x61, 0x74,
  0x65, 0x66, 0x75, 0x6c, 0x50, 0x61, 0x72, 0x74, 0x69, 0x74, 0x69, 0x6f,
  0x6e, 0x65, 0x64, 0x43, 0x61, 0x6c, 0x6c, 0x2f, 0x73, 0x65, 0x71, 0x75,
  0x65, 0x6e, 0x74, 0x69, 0x61, 0x6c, 0x2f, 0x64, 0x65, 0x6e, 0x73, 0x65,
  0x2f, 0x4d, 0x61, 0x74, 0x4d, 0x75, 0x6c, 0x00, 0x02, 0x00, 0x00, 0x00,
  0x14, 0x00, 0x00, 0x00, 0x42, 0x00, 0x00, 0x00, 0xfa, 0xfe, 0xff, 0xff,
  0x00, 0x00, 0x00, 0x02, 0x40, 0x00, 0x00, 0x00, 0x04, 0x00, 0x00, 0x00,
  0x28, 0x00, 0x00, 0x00, 0x04, 0x00, 0x00, 0x00, 0x5c, 0xff, 0xff, 0xff,
  0x14, 0x00, 0x00, 0x00, 0x04, 0x00, 0x00, 0x00, 0x01, 0x00, 0x00, 0x00,
  0x00, 0x00, 0x00, 0x00, 0x00, 0x00, 0x00, 0x00, 0x01, 0x00, 0x00, 0x00,
  0x2e, 0x63, 0x09, 0x3a, 0x09, 0x00, 0x00, 0x00, 0x75, 0x6e, 0x6b, 0x6e,
  0x6f, 0x77, 0x6e, 0x5f, 0x34, 0x00, 0x00, 0x00, 0x01, 0x00, 0x00, 0x00,
  0x03, 0x00, 0x00, 0x00, 0x4a, 0xff, 0xff, 0xff, 0x00, 0x00, 0x00, 0x02,
  0x44, 0x00, 0x00, 0x00, 0x03, 0x00, 0x00, 0x00, 0x2c, 0x00, 0x00, 0x00,
  0x04, 0x00, 0x00, 0x00, 0xac, 0xff, 0xff, 0xff, 0x18, 0x00, 0x00, 0x00,
  0x04, 0x00, 0x00, 0x00, 0x01, 0x00, 0x00, 0x00, 0x00, 0x00, 0x00, 0x00,
  0x00, 0x00, 0x00, 0x00, 0x00, 0x00, 0x00, 0x00, 0x01, 0x00, 0x00, 0x00,
  0xfb, 0xcb, 0x86, 0x39, 0x09, 0x00, 0x00, 0x00, 0x75, 0x6e, 0x6b, 0x6e,
  0x6f, 0x77, 0x6e, 0x5f, 0x32, 0x00, 0x00, 0x00, 0x01, 0x00, 0x00, 0x00,
  0x0a, 0x00, 0x00, 0x00, 0x9e, 0xff, 0xff, 0xff, 0x00, 0x00, 0x00, 0x02,
  0x50, 0x00, 0x00, 0x00, 0x02, 0x00, 0x00, 0x00, 0x38, 0x00, 0x00, 0x00,
  0x10, 0x00, 0x00, 0x00, 0x0c, 0x00, 0x0c, 0x00, 0x00, 0x00, 0x00, 0x00,
  0x04, 0x00, 0x08, 0x00, 0x0c, 0x00, 0x00, 0x00, 0x18, 0x00, 0x00, 0x00,
  0x04, 0x00, 0x00, 0x00, 0x01, 0x00, 0x00, 0x00, 0x00, 0x00, 0x00, 0x00,
  0x00, 0x00, 0x00, 0x00, 0x00, 0x00, 0x00, 0x00, 0x01, 0x00, 0x00, 0x00,
  0xb0, 0x5e, 0x31, 0x39, 0x09, 0x00, 0x00, 0x00, 0x75, 0x6e, 0x6b, 0x6e,
  0x6f, 0x77, 0x6e, 0x5f, 0x30, 0x00, 0x00, 0x00, 0x01, 0x00, 0x00, 0x00,
  0x14, 0x00, 0x00, 0x00, 0x00, 0x00, 0x0e, 0x00, 0x18, 0x00, 0x08, 0x00,
  0x07, 0x00, 0x0c, 0x00, 0x10, 0x00, 0x14, 0x00, 0x0e, 0x00, 0x00, 0x00,
  0x00, 0x00, 0x00, 0x09, 0x64, 0x00, 0x00, 0x00, 0x01, 0x00, 0x00, 0x00,
  0x50, 0x00, 0x00, 0x00, 0x10, 0x00, 0x00, 0x00, 0x0c, 0x00, 0x14, 0x00,
  0x04, 0x00, 0x08, 0x00, 0x0c, 0x00, 0x10, 0x00, 0x0c, 0x00, 0x00, 0x00,
  0x30, 0x00, 0x00, 0x00, 0x24, 0x00, 0x00, 0x00, 0x18, 0x00, 0x00, 0x00,
  0x04, 0x00, 0x00, 0x00, 0x01, 0x00, 0x00, 0x00, 0x80, 0xff, 0xff, 0xff,
  0xff, 0xff, 0xff, 0xff, 0x00, 0x00, 0x00, 0x00, 0x01, 0x00, 0x00, 0x00,
  0x85, 0xb4, 0x2b, 0x3d, 0x01, 0x00, 0x00, 0x00, 0xd0, 0x08, 0x2b, 0x41,
  0x01, 0x00, 0x00, 0x00, 0x00, 0x00, 0x00, 0x00, 0x07, 0x00, 0x00, 0x00,
  0x78, 0x5f, 0x69, 0x6e, 0x70, 0x75, 0x74, 0x00, 0x02, 0x00, 0x00, 0x00,
  0x01, 0x00, 0x00, 0x00, 0x42, 0x00, 0x00, 0x00, 0x02, 0x00, 0x00, 0x00,
  0x2c, 0x00, 0x00, 0x00, 0x10, 0x00, 0x00, 0x00, 0x00, 0x00, 0x0a, 0x00,
  0x0e, 0x00, 0x07, 0x00, 0x00, 0x00, 0x08, 0x00, 0x0a, 0x00, 0x00, 0x00,
  0x00, 0x00, 0x00, 0x19, 0x02, 0x00, 0x00, 0x00, 0x00, 0x00, 0x0a, 0x00,
  0x0c, 0x00, 0x07, 0x00, 0x00, 0x00, 0x08, 0x00, 0x0a, 0x00, 0x00, 0x00,
  0x00, 0x00, 0x00, 0x09, 0x04, 0x00, 0x00, 0x00
};
unsigned int trained_tflite_len = 4256;
